TRT-8501-EntropyCalibration2
input_1: 3c021427
conv1/convolution: 3d306c04
bn_conv1/batchnorm/mul_1: 3a782b0d
bn_conv1/batchnorm/add_1: 3caa7c10
activation_1/Relu: 3cc01f30
block_1a_conv_1/convolution: 3cffd4b6
block_1a_bn_1/batchnorm/mul_1: 3cb53a4f
block_1a_bn_1/batchnorm/add_1: 3cd4c023
block_1a_relu_1/Relu: 3c671ed0
block_1a_conv_2/convolution: 3cafdc0e
block_1a_bn_2/batchnorm/mul_1: 3cdb3257
block_1a_bn_2/batchnorm/add_1: 3cb1411b
block_1a_conv_shortcut/convolution: 3cbb638b
block_1a_bn_shortcut/batchnorm/mul_1: 3d051162
block_1a_bn_shortcut/batchnorm/add_1: 3cf59796
add_1/add: 3d0e8ab6
block_1a_relu/Relu: 3cfd440e
block_1b_conv_1/convolution: 3d261ba5
block_1b_bn_1/batchnorm/mul_1: 3cc272bc
block_1b_bn_1/batchnorm/add_1: 3cc86c03
block_1b_relu_1/Relu: 3cc808b9
block_1b_conv_2/convolution: 3ccb6549
block_1b_bn_2/batchnorm/mul_1: 3d17a7a5
block_1b_bn_2/batchnorm/add_1: 3d291a4b
block_1b_conv_shortcut/convolution: 3c9d01a9
block_1b_bn_shortcut/batchnorm/mul_1: 3c9f2254
block_1b_bn_shortcut/batchnorm/add_1: 3cbbdb73
add_2/add: 3d1e7781
block_1b_relu/Relu: 3d09c81f
block_2a_conv_1/convolution: 3d711622
block_2a_bn_1/batchnorm/mul_1: 3cc46721
block_2a_bn_1/batchnorm/add_1: 3ce328b3
block_2a_relu_1/Relu: 3cb9bc37
block_2a_conv_2/convolution: 3d721f11
block_2a_bn_2/batchnorm/mul_1: 3d8f442d
block_2a_bn_2/batchnorm/add_1: 3d1ffff3
block_2a_conv_shortcut/convolution: 3cc3eefb
block_2a_bn_shortcut/batchnorm/mul_1: 3cd499f1
block_2a_bn_shortcut/batchnorm/add_1: 3d0dde73
add_3/add: 3d46d6e4
block_2a_relu/Relu: 3d468357
block_2b_conv_1/convolution: 3db57c85
block_2b_bn_1/batchnorm/mul_1: 3d8331bc
block_2b_bn_1/batchnorm/add_1: 3d5cb78e
block_2b_relu_1/Relu: 3d53ef7a
block_2b_conv_2/convolution: 3d0bf206
block_2b_bn_2/batchnorm/mul_1: 3dd296e7
block_2b_bn_2/batchnorm/add_1: 3d9ca10f
block_2b_conv_shortcut/convolution: 3d4dfccc
block_2b_bn_shortcut/batchnorm/mul_1: 3d6e5c8f
block_2b_bn_shortcut/batchnorm/add_1: 3d42073c
add_4/add: 3de14882
block_2b_relu/Relu: 3dfcacde
block_3a_conv_1/convolution: 3dad1927
block_3a_bn_1/batchnorm/mul_1: 3ddecfb3
block_3a_bn_1/batchnorm/add_1: 3de55a49
block_3a_relu_1/Relu: 3ddfb9c5
block_3a_conv_2/convolution: 3d944b6e
block_3a_bn_2/batchnorm/mul_1: 3de3eac4
block_3a_bn_2/batchnorm/add_1: 3dd7fd45
block_3a_conv_shortcut/convolution: 3d053055
block_3a_bn_shortcut/batchnorm/mul_1: 3d2fe61e
block_3a_bn_shortcut/batchnorm/add_1: 3d2e236e
add_5/add: 3e0020d4
block_3a_relu/Relu: 3d4c305d
block_3b_conv_1/convolution: 3db317ef
block_3b_bn_1/batchnorm/mul_1: 3d635f42
block_3b_bn_1/batchnorm/add_1: 3d34e455
block_3b_relu_1/Relu: 3c896248
block_3b_conv_2/convolution: 3c4a6310
block_3b_bn_2/batchnorm/mul_1: 3ced4d59
block_3b_bn_2/batchnorm/add_1: 3cdf98a6
block_3b_conv_shortcut/convolution: 3d275514
block_3b_bn_shortcut/batchnorm/mul_1: 3d6ae160
block_3b_bn_shortcut/batchnorm/add_1: 3d4047e4
add_6/add: 3d647f11
block_3b_relu/Relu: 3d025216
block_4a_conv_1/convolution: 3d3d0dcc
block_4a_bn_1/batchnorm/mul_1: 3cfdaa23
block_4a_bn_1/batchnorm/add_1: 3d044e91
block_4a_relu_1/Relu: 3c8ffce8
block_4a_conv_2/convolution: 3d05b293
block_4a_bn_2/batchnorm/mul_1: 3d855bf3
block_4a_bn_2/batchnorm/add_1: 3d843de7
block_4a_conv_shortcut/convolution: 3c992526
block_4a_bn_shortcut/batchnorm/mul_1: 3d02a792
block_4a_bn_shortcut/batchnorm/add_1: 3cf6052d
add_7/add: 3d8d0759
block_4a_relu/Relu: 3d11a70d
block_4b_conv_1/convolution: 3d705fe6
block_4b_bn_1/batchnorm/mul_1: 3db7cccc
block_4b_bn_1/batchnorm/add_1: 3d9fbe80
block_4b_relu_1/Relu: 3cded772
block_4b_conv_2/convolution: 3c297e44
block_4b_bn_2/batchnorm/mul_1: 3dd3988d
block_4b_bn_2/batchnorm/add_1: 3dd625ad
block_4b_conv_shortcut/convolution: 3c2c3458
block_4b_bn_shortcut/batchnorm/mul_1: 3da5ffb3
block_4b_bn_shortcut/batchnorm/add_1: 3daac897
add_8/add: 3e3f927d
block_4b_relu/Relu: 3db8a3f4
flatten/Reshape: 3db8a3f4
predictions/MatMul: 3c2e987c
predictions/BiasAdd: 3c14282a
predictions/Softmax: 3bdf21d6
